<unk>	0
▁w	-0
▁n	-1
gh	-2
▁m	-3
▁k	-4
wa	-5
an	-6
ka	-7
ri	-8
▁i	-9
ch	-10
da	-11
▁ku	-12
en	-13
gha	-14
▁na	-15
▁ni	-16
on	-17
di	-18
ya	-19
du	-20
▁ma	-21
un	-22
de	-23
si	-24
sh	-25
la	-26
ra	-27
mb	-28
gho	-29
yi	-30
▁wa	-31
▁kwa	-32
▁v	-33
re	-34
▁u	-35
se	-36
▁gh	-37
in	-38
▁ch	-39
ko	-40
▁ki	-41
ki	-42
lo	-43
ma	-44
▁o	-45
ia	-46
go	-47
ku	-48
andu	-49
zi	-50
sa	-51
gi	-52
ja	-53
do	-54
li	-55
ke	-56
ana	-57
▁ya	-58
ga	-59
ba	-60
▁gha	-61
▁nde	-62
gu	-63
▁a	-64
lwa	-65
▁ra	-66
▁ghwa	-67
enyi	-68
ha	-69
wan	-70
mi	-71
lu	-72
kun	-73
▁ka	-74
me	-75
▁vi	-76
mu	-77
ye	-78
ta	-79
le	-80
fu	-81
cha	-82
po	-83
ongo	-84
ria	-85
mba	-86
tu	-87
ghi	-88
▁cha	-89
ghu	-90
bon	-91
ji	-92
ru	-93
sha	-94
▁di	-95
bo	-96
ro	-97
▁e	-98
▁s	-99
ghe	-100
fun	-101
ti	-102
aw	-103
anga	-104
daw	-105
sho	-106
ika	-107
yu	-108
▁ng	-109
chi	-110
▁si	-111
enda	-112
wana	-113
ua	-114
▁ndo	-115
ani	-116
▁j	-117
rie	-118
shi	-119
engi	-120
ie	-121
pa	-122
eka	-123
▁mb	-124
pe	-125
▁ko	-126
▁mn	-127
▁mwa	-128
lagho	-129
te	-130
yo	-131
▁va	-132
▁mi	-133
▁ja	-134
oni	-135
ere	-136
chu	-137
vi	-138
za	-139
ona	-140
▁ha	-141
▁ri	-142
eke	-143
▁gho	-144
▁se	-145
uw	-146
man	-147
onyi	-148
▁nge	-149
kunda	-150
bonya	-151
mbi	-152
kie	-153
mbo	-154
▁mndu	-155
we	-156
▁re	-157
▁sa	-158
andi	-159
▁kazi	-160
ida	-161
dima	-162
kwa	-163
ada	-164
baa	-165
ngi	-166
▁kila	-167
▁kuse	-168
hi	-169
ho	-170
▁ghu	-171
▁naw	-172
▁mwana	-173
mbe	-174
rwa	-175
▁an	-176
▁mo	-177
▁vin	-178
jo	-179
to	-180
zo	-181
sanga	-182
die	-183
eni	-184
tuku	-185
ghora	-186
▁vindo	-187
tin	-188
▁ba	-189
▁da	-190
▁mz	-191
gome	-192
▁nyu	-193
▁sh	-194
▁machi	-195
▁magome	-196
▁malagho	-197
lin	-198
sia	-199
▁lu	-200
▁su	-201
▁uka	-202
▁ndew	-203
ni	-204
so	-205
ane	-206
asi	-207
ose	-208
▁ne	-209
fuma	-210
kongo	-211
kunde	-212
▁nicha	-213
moni	-214
ungu	-215
▁ngelo	-216
zigh	-217
ang	-218
ende	-219
undu	-220
▁ela	-221
▁ghi	-222
▁kuw	-223
longo	-224
▁kuka	-225
▁kwaki	-226
eko	-227
fwa	-228
ugh	-229
deka	-230
▁chi	-231
▁daw	-232
bonye	-233
vu	-234
ele	-235
▁iri	-236
longozi	-237
mwa	-238
▁ye	-239
inyi	-240
▁waw	-241
su	-242
edu	-243
▁ml	-244
anya	-245
▁ngu	-246
▁oka	-247
▁kwaw	-248
▁isanga	-249
bu	-250
dwa	-251
fwan	-252
ilwa	-253
▁ngo	-254
▁nya	-255
▁vua	-256
lagha	-257
▁angu	-258
▁nandi	-259
▁ilagho	-260
▁nandighi	-261
pu	-262
mie	-263
uya	-264
▁de	-265
ingi	-266
rika	-267
▁cho	-268
mbiri	-269
▁chia	-270
▁ugho	-271
▁mlungu	-272
va	-273
cho	-274
mwe	-275
nyi	-276
▁ji	-277
enyu	-278
ghwa	-279
▁ijo	-280
▁ore	-281
mweri	-282
▁wada	-283
mbenyi	-284
ai	-285
pi	-286
▁b	-287
dime	-288
tini	-289
▁mbo	-290
▁agha	-291
hu	-292
ze	-293
uri	-294
▁ik	-295
▁mu	-296
shin	-297
▁iyo	-298
▁mari	-299
▁matuku	-300
iw	-301
je	-302
▁h	-303
gwa	-304
kia	-305
lia	-306
▁mr	-307
siki	-308
▁mka	-309
funya	-310
fwana	-311
omi	-312
angi	-313
sari	-314
▁ihi	-315
▁kun	-316
▁raw	-317
▁shi	-318
▁andu	-319
▁kula	-320
▁ndoe	-321
▁seji	-322
▁omoni	-323
▁imbiri	-324
fi	-325
ena	-326
mbu	-327
adaw	-328
▁aha	-329
▁huw	-330
▁mao	-331
manya	-332
tesia	-333
▁nguw	-334
ju	-335
aka	-336
bwa	-337
che	-338
she	-339
▁je	-340
▁me	-341
▁ro	-342
kulu	-343
loli	-344
pata	-345
▁mba	-346
▁suti	-347
▁idime	-348
▁nyumbenyi	-349
aja	-350
eng	-351
low	-352
▁pu	-353
agha	-354
boie	-355
reda	-356
unyi	-357
▁ghe	-358
▁lwa	-359
▁mbe	-360
▁sha	-361
▁shu	-362
▁uki	-363
▁yaw	-364
ghadi	-365
▁hata	-366
▁maza	-367
▁mbuw	-368
▁ndou	-369
▁nika	-370
▁rose	-371
▁ngolo	-372
▁mzinyi	-373
▁kilambo	-374
▁r	-375
amu	-376
dan	-377
sin	-378
swa	-379
ywa	-380
▁in	-381
diri	-382
iaka	-383
▁agho	-384
▁vila	-385
▁wapo	-386
▁miaka	-387
dimagha	-388
mo	-389
asa	-390
▁uo	-391
chua	-392
dadu	-393
ghon	-394
paka	-395
vika	-396
▁chu	-397
▁ndi	-398
▁uja	-399
kenyi	-400
meria	-401
▁sena	-402
sikira	-403
▁ghose	-404
▁ituku	-405
▁mburi	-406
▁mengi	-407
▁ndedi	-408
▁kubonya	-409
ruw	-410
ung	-411
uni	-412
▁aw	-413
▁iw	-414
ishi	-415
kaia	-416
lazi	-417
rumi	-418
zima	-419
▁ini	-420
▁kiw	-421
denyi	-422
fungu	-423
koghe	-424
konyi	-425
lomba	-426
zerwa	-427
▁ghaw	-428
▁icho	-429
▁koni	-430
▁mwan	-431
▁putu	-432
ukongo	-433
▁ikani	-434
▁mpaka	-435
▁mundu	-436
▁ngera	-437
▁skulu	-438
zighana	-439
▁kufuma	-440
▁nyumba	-441
▁vilambo	-442
▁shighadi	-443
▁vilongozi	-444
ei	-445
mw	-446
na	-447
boi	-448
dun	-449
mia	-450
onu	-451
▁wo	-452
poie	-453
ungi	-454
▁uhu	-455
mandu	-456
manyi	-457
righi	-458
▁kifu	-459
▁shuu	-460
▁maghe	-461
angenyi	-462
sarigho	-463
▁mrongo	-464
he	-465
dia	-466
jwa	-467
uka	-468
▁it	-469
▁wu	-470
enya	-471
shwa	-472
zere	-473
zoya	-474
▁uko	-475
▁kala	-476
▁kisa	-477
▁loli	-478
fungwa	-479
ghorie	-480
▁kuchu	-481
▁mwaka	-482
bonyere	-483
laghaya	-484
lindiri	-485
▁sharia	-486
▁nyamandu	-487
anu	-488
avi	-489
ene	-490
isi	-491
one	-492
sow	-493
una	-494
usi	-495
▁ho	-496
▁la	-497
▁mw	-498
▁ow	-499
adie	-500
enga	-501
ghua	-502
mbwa	-503
tuli	-504
▁mzi	-505
▁nda	-506
ghori	-507
kundi	-508
▁mbaa	-509
▁sere	-510
ekeria	-511
ghenda	-512
▁ghadi	-513
▁ghwaw	-514
▁mariw	-515
ughanga	-516
zoghori	-517
▁kisaya	-518
▁mndungi	-519
ew	-520
ede	-521
iko	-522
kio	-523
ong	-524
ori	-525
▁ti	-526
aghi	-527
ango	-528
gare	-529
ichi	-530
kumi	-531
ombe	-532
▁aja	-533
▁ani	-534
▁che	-535
▁eri	-536
▁isi	-537
▁kaw	-538
▁kii	-539
▁kim	-540
fwane	-541
ghalu	-542
▁mana	-543
▁mori	-544
▁niko	-545
ghoria	-546
poilwa	-547
▁jingi	-548
▁nyama	-549
▁siasa	-550
▁mbogha	-551
▁ndeghi	-552
▁zoghori	-553
ano	-554
bia	-555
ese	-556
kan	-557
kiw	-558
kuw	-559
liw	-560
oko	-561
oma	-562
pin	-563
poi	-564
shu	-565
uja	-566
▁ny	-567
▁wi	-568
bari	-569
indi	-570
isha	-571
lima	-572
rasi	-573
ucha	-574
▁hao	-575
▁ich	-576
▁ika	-577
▁kum	-578
▁nyi	-579
▁ode	-580
▁oku	-581
chuku	-582
dinyi	-583
merie	-584
zamie	-585
▁ighu	-586
▁mali	-587
▁mavu	-588
▁neka	-589
▁rada	-590
▁sana	-591
▁yape	-592
rikali	-593
▁ikumi	-594
▁itana	-595
▁kidaw	-596
▁kusho	-597
▁maghu	-598
endagha	-599
zighane	-600
▁chaghu	-601
▁habari	-602
▁kukaia	-603
▁nyingi	-604
▁makongo	-605
▁kilongozi	-606
aku	-607
oka	-608
rua	-609
uju	-610
uru	-611
amba	-612
ande	-613
hore	-614
idie	-615
kari	-616
lola	-617
seke	-618
▁diw	-619
▁igu	-620
▁iro	-621
▁isa	-622
▁jha	-623
▁kus	-624
▁nan	-625
▁nga	-626
▁oho	-627
churi	-628
endie	-629
legha	-630
lemwa	-631
senyi	-632
▁chai	-633
▁niku	-634
andika	-635
churia	-636
ekunda	-637
▁igare	-638
▁nakio	-639
▁chingi	-640
▁imweri	-641
▁kupata	-642
▁maisha	-643
▁mavuda	-644
▁ndighi	-645
bonyagha	-646
▁kichuku	-647
▁nekunda	-648
▁serikali	-649
▁ikanisenyi	-650
▁t	-651
agh	-652
bua	-653
doi	-654
eri	-655
idi	-656
kua	-657
mka	-658
uke	-659
vui	-660
▁ke	-661
▁le	-662
▁ve	-663
▁vu	-664
anda	-665
chaa	-666
deda	-667
elee	-668
jala	-669
kana	-670
kani	-671
linu	-672
neka	-673
unda	-674
yose	-675
▁aho	-676
▁iji	-677
▁kam	-678
▁mae	-679
▁maw	-680
▁mgh	-681
▁mru	-682
▁msi	-683
▁nio	-684
▁siw	-685
atini	-686
damba	-687
fundi	-688
funga	-689
fwani	-690
ghana	-691
kanya	-692
oneka	-693
shomo	-694
valwa	-695
▁bado	-696
▁kimu	-697
▁koka	-698
▁koko	-699
▁linu	-700
▁luma	-701
▁masa	-702
▁mdaw	-703
▁modo	-704
▁mwai	-705
▁nada	-706
▁ndee	-707
▁ndeu	-708
▁rapo	-709
▁reko	-710
▁simu	-711
▁ughu	-712
▁wake	-713
▁yapo	-714
▁zima	-715
boilwa	-716
zerelo	-717
▁bagha	-718
▁chofi	-719
▁ghamu	-720
▁irina	-721
▁wandu	-722
aisanga	-723
righiti	-724
▁chongo	-725
▁kuseke	-726
▁mwandu	-727
▁nyonyi	-728
▁chienyi	-729
▁mafungu	-730
▁maghesho	-731
ughangenyi	-732
▁misarigho	-733
be	-734
bi	-735
▁d	-736
diw	-737
gia	-738
ini	-739
jha	-740
ran	-741
toe	-742
uda	-743
usa	-744
▁ga	-745
▁li	-746
▁mk	-747
▁mp	-748
▁te	-749
▁tu	-750
▁uw	-751
anwa	-752
anyi	-753
duka	-754
dumi	-755
hali	-756
leke	-757
leme	-758
limu	-759
masi	-760
ngie	-761
obua	-762
onda	-763
teto	-764
▁eko	-765
▁kri	-766
▁man	-767
▁mko	-768
▁niw	-769
▁oko	-770
▁toe	-771
▁use	-772
anake	-773
donyi	-774
enjwa	-775
ghoma	-776
kundo	-777
manye	-778
sigha	-779
sinda	-780
urumw	-781
▁chaw	-782
▁jesu	-783
▁kamp	-784
▁kilo	-785
▁kodi	-786
▁kuku	-787
▁mako	-788
▁mbeo	-789
▁mboa	-790
▁meso	-791
▁noko	-792
▁wani	-793
▁yose	-794
duagha	-795
halifu	-796
sighwa	-797
▁ghape	-798
▁ghoka	-799
▁ichia	-800
▁kavui	-801
▁kenya	-802
▁mruna	-803
▁mzedu	-804
▁nderi	-805
shoghon	-806
▁ghenda	-807
▁ghwape	-808
▁kuende	-809
▁kumoni	-810
▁mkongo	-811
▁ndacha	-812
erekoghe	-813
ulindiri	-814
▁kafwani	-815
▁waghora	-816
▁mrighiti	-817
ow	-818
▁y	-819
aya	-820
ina	-821
jhi	-822
rio	-823
spi	-824
toi	-825
uny	-826
▁bo	-827
▁is	-828
▁ta	-829
▁un	-830
adwa	-831
anye	-832
baha	-833
bora	-834
ghie	-835
gulu	-836
joka	-837
kaba	-838
kaie	-839
kilo	-840
lala	-841
luma	-842
mbie	-843
ogho	-844
olwa	-845
piki	-846
pwan	-847
rama	-848
rang	-849
relo	-850
tali	-851
tumi	-852
▁ije	-853
▁iko	-854
▁ita	-855
▁ivi	-856
▁jaw	-857
▁law	-858
▁mra	-859
▁msa	-860
▁nim	-861
▁ofi	-862
▁saa	-863
▁she	-864
▁wan	-865
ambao	-866
boisa	-867
bonyo	-868
danya	-869
dunga	-870
eenda	-871
ekelo	-872
ghosi	-873
linga	-874
mangi	-875
misha	-876
poiye	-877
shire	-878
silwa	-879
sirie	-880
ughia	-881
usira	-882
▁hali	-883
▁ichi	-884
▁indo	-885
▁iruw	-886
▁jela	-887
▁kuni	-888
▁leka	-889
▁mapa	-890
▁nawe	-891
▁ndei	-892
▁nise	-893
▁rape	-894
▁rimu	-895
▁timu	-896
▁vala	-897
▁wana	-898
▁wape	-899
▁yada	-900
▁yako	-901
▁yeka	-902
efwana	-903
ghesha	-904
ghokie	-905
mkunde	-906
tineri	-907
ughoma	-908
utesia	-909
▁hospi	-910
▁kwake	-911
▁kwani	-912
▁kwapo	-913
▁mando	-914
▁mbaha	-915
▁ndodo	-916
▁njala	-917
▁rangi	-918
▁vidoi	-919
afungwa	-920
bwaghwa	-921
endelia	-922
kundika	-923
randadu	-924
▁ijeshi	-925
▁itamwa	-926
▁kimonu	-927
▁ndekun	-928
▁ndoghu	-929
manyikie	-930
tulituli	-931
▁ikanisa	-932
▁itanaha	-933
▁kwadima	-934
▁lukundo	-935
▁mashomo	-936
▁sikunde	-937
▁kuchumba	-938
▁msarigho	-939
▁shekeria	-940
▁hospitali	-941
▁mwatulituli	-942
ae	-943
fa	-944
apo	-945
ara	-946
bie	-947
gua	-948
iki	-949
ise	-950
iya	-951
jhe	-952
lie	-953
lue	-954
ren	-955
rin	-956
tie	-957
twa	-958
uki	-959
ula	-960
waw	-961
▁af	-962
▁du	-963
▁fu	-964
▁nd	-965
▁pa	-966
▁ru	-967
▁so	-968
asho	-969
bara	-970
damu	-971
dana	-972
dede	-973
deni	-974
enge	-975
enja	-976
hari	-977
ighu	-978
ikwa	-979
kate	-980
kwan	-981
kwau	-982
lila	-983
onie	-984
oruw	-985
tesi	-986
tiri	-987
unya	-988
urwa	-989
▁	-990
a	-991
i	-992
n	-993
w	-994
u	-995
e	-996
o	-997
k	-998
h	-999
m	-1000
g	-1001
d	-1002
'	-1003
r	-1004
s	-1005
.	-1006
l	-1007
y	-1008
b	-1009
c	-1010
t	-1011
j	-1012
v	-1013
z	-1014
p	-1015
f	-1016
?	-1017
,	-1018
!	-1019
-	-1020
:	-1021
’	-1022
